00
03
01
01
1F
01
03
01
01
03
1F
1F
03
03
01
03
00
01
01
1F
01
03
01
01
03
1F
1F
03
03
01
01
01
00
1F
1D
03
01
1F
03
01
1D
01
01
01
03
01
01
1F
00
01
1F
01
1F
1F
01
01
01
01
01
1F
1F
1F
1D
01
00
1D
1F
01
1D
1F
03
1F
1F
1F
1D
01
01
03
1F
1D
00
01
1F
03
01
1D
01
01
01
03
03
03
01
01
1F
01
00
01
01
03
1F
1F
03
03
01
01
01
1F
1F
01
1F
01
00
1F
01
01
1D
01
01
1F
01
01
03
1F
1D
03
01
1F
00
01
1D
01
01
01
03
03
03
01
01
1F
01
03
01
01
00
1F
1F
03
03
01
1F
1F
1D
01
03
1D
1F
01
1D
1F
00
1F
1F
1F
1D
1F
1F
01
01
1F
01
1F
1D
01
1F
1F
00
1F
1F
01
03
03
01
01
1F
01
03
01
01
03
1F
1F
00
03
01
03
03
01
01
1F
01
03
01
01
03
1F
1F
03
00
01
01
01
03
1F
1D
03
01
1F
03
01
1D
01
01
01
00
