00
0C
05
04
1C
05
0E
05
05
0D
1C
1C
0D
0D
02
0C
00
04
04
1D
03
0C
04
04
0D
1D
1C
0C
0C
01
05
04
00
1C
13
0D
05
1B
0C
04
13
03
04
04
0B
04
04
1C
00
05
1B
05
1C
1C
04
05
05
03
05
1B
1C
1D
13
05
00
12
1C
05
13
1C
0F
1C
1C
1C
13
05
03
0D
1B
12
00
05
1B
0C
04
12
03
04
04
0C
0E
0C
05
05
1C
05
00
04
05
0D
1C
1D
0D
0E
02
05
04
1B
1C
05
1B
04
00
1D
04
05
13
05
03
1B
05
04
0C
1C
13
0C
05
1D
00
05
13
02
05
05
0B
0D
0D
04
04
1C
04
0D
04
05
00
1C
1C
0D
0D
02
1C
1D
13
05
0F
12
1C
05
13
1C
00
1C
1C
1C
13
1C
1C
03
05
1C
03
1D
13
02
1C
1C
00
1B
1D
04
0D
0C
04
03
1C
04
0D
05
05
0D
1C
1B
00
0D
02
0D
0C
04
05
1C
04
0E
03
05
0D
1C
1D
0D
00
03
02
01
0B
1B
13
0C
02
1B
0B
02
13
04
02
03
00
